Ġ t
h e
i n
Ġ a
Ġ o
e s
Ġt he
e r
Ġ w
o n
Ġo f
o r
i t
Ġ s
n d
i s
r e
a t
0 0
Ġ in
a s
Ġ f
a n
Ġ c
a l
in g
e n
Ġ m
Ġa nd
Ġ b
i c
e d
o m
 

Ġ d

 
a r
i on
Ġ is
Ġt o
Ġw as
o u
l e
e t
Ġ it
Ġ p
Ġ A
Ġ h
l l
t h
c h
r o
T he
er s
Ġ l
Ġ n
s t
p p
i l
Ġf or
r i
i v
Ġ e
Ġw or
Ġt h
i m
Ġb e
Ġ u
c e
Ġ (
en t
Ġ 1
ĠA m
00 0
Ġs q
Ġh o
Ġo r
es t
at ion
Ġ r
at e
c t
Ġ I
v er
a re
f or
o l
es s
Ġs e
Ġa re
l y
a in
Ġ S
l d
Ġ he
Ġ k
o t
i r
an s
Ġc om
e f
d u
p e
u t
c l
s ing
Ġ re
Ġt r
u r
t at
tat es
Ġwor ld
Ġk il
Ġkil om
Ġkilom et
Ġkilomet ers
Ġm i
Ġo ver
Ġ g
e ll
o w
Ġth at
o ch
i g
a m
a ch
i f
en ce
u l
e m
cl u
) ,
Ġa pp
Ġc on
b le
Ġm o
' s
Ġa ll
Ġtr ans
Ġ U
Ġw h
Ġwh ic
Ġwhic h
l a
Ġf r
Ġfr om
Ġ1 8
ĠAm er
ĠAmer ic
Ġ C
Ġsq u
Ġsqu are
ĠI t
Ġho le
ou nd
as t
Ġw it
Ġwit h
Ġa n
Ġ y
o th
Ġa g
n ess
it y
as on
h t
Ġd es
a pp
app y
i es
Ġu n
i al
Ġin t
c ess
Ġcom p
s e
clu d
t he
for m
form ation
ion s
g an
Ġmo st
ar y
o s
Ġ en
a ct
an t
Ġn e
er t
st ri
stri al
Ġ R
ĠR e
v ol
Ġ1 9
ĠAmeric a
Ġb as
Ġ18 6
ĠU n
Ġin d
ĠS tates
c es
ĠAm a
ĠAma z
ĠAmaz on
Ġl ar
Ġlar g
Ġlarg est
Ġare a
Ġ im
Ġl iv
Ġho b
Ġhob b
Ġhobb it
nd s
m s
a nd
ow n
Ġo n
Ġm e
Ġt im
Ġtim es
Ġag e
d om
Ġe p
Ġep och
l i
Ġse ason
ig ht
t er
Ġf am
Ġfam il
Ġun h
Ġunh appy
w n
r t
Ġint ell
Ġintell ig
Ġintellig ence
Ġp ro
Ġpro cess
Ġprocess es
Ġb y
Ġm ach
Ġmach in
Ġmachin es
Ġs y
Ġsy st
Ġsyst em
Ġ The
Ġin clud
Ġinclud e
Ġa c
Ġin formation
Ġr ul
Ġrul es
Ġu sing
Ġapp ro
Ġappro x
Ġapprox im
Ġapproxim ate
l f
it och
itoch on
itochon d
Ġor gan
e l
er ate
in e
p h
Ġa s
ou r
ic al
g y
l o
Ġd e
ent r
entr al
Ġtrans act
Ġtransact ions
Ġc an
or ity
Ġ P
Ġapp l
Ġappl ic
Ġapplic ation
a d
Ġ v
Ġm an
the r
ĠI nd
ĠInd u
ĠIndu strial
ĠRe vol
ĠRevol ut
ĠRevolut ion
o k
ent u
ri es
Ġp er
ur ing
i an
c i
Ġbe c
Ġ B
r it
7 00
Ġp e
Ġpe o
Ġpeo p
Ġpeop le
Ġ W
ĠW ar
ou g
Ġ186 1
ĠC on
ĠCon f
ĠConf ed
Ġ 3
Ġ3 4
Ġs tates
ĠS ou
la v
Ġind iv
Ġindiv i
Ġindivi du
Ġindividu al
ĠUn it
ĠUnit ed
Ġfor m
Ġform ed
n t
re at
Ġr ain
Ġrain for
Ġrainfor est
Ġc o
Ġbas in
Ġre ef
Ġ 2
9 00
4 00
ar a
Ġdes ert
Ġover al
Ġoveral l
ct ic
Ġb oth
v es
Ġd is
Ġim p
Ġhe al
Ġheal th
Ġne w
