{
  "\u003CPAD\u003E": 0,
  "\u003CUNK\u003E": 1,
  "\u003CBOS\u003E": 2,
  "\u003CEOS\u003E": 3,
  "\n": 4,
  "\r": 5,
  "\u0027": 6,
  "(": 7,
  ")": 8,
  ",": 9,
  "-": 10,
  ".": 11,
  "0": 12,
  "1": 13,
  "2": 14,
  "3": 15,
  "4": 16,
  "5": 17,
  "6": 18,
  "7": 19,
  "8": 20,
  "9": 21,
  ":": 22,
  ";": 23,
  "A": 24,
  "B": 25,
  "C": 26,
  "D": 27,
  "E": 28,
  "G": 29,
  "I": 30,
  "J": 31,
  "L": 32,
  "M": 33,
  "N": 34,
  "P": 35,
  "R": 36,
  "S": 37,
  "T": 38,
  "U": 39,
  "W": 40,
  "a": 41,
  "b": 42,
  "c": 43,
  "d": 44,
  "e": 45,
  "f": 46,
  "g": 47,
  "h": 48,
  "i": 49,
  "j": 50,
  "k": 51,
  "l": 52,
  "m": 53,
  "n": 54,
  "o": 55,
  "p": 56,
  "q": 57,
  "r": 58,
  "s": 59,
  "t": 60,
  "u": 61,
  "v": 62,
  "w": 63,
  "x": 64,
  "y": 65,
  "z": 66,
  "\u0120": 67,
  "\u2014": 68,
  "\u0120t": 69,
  "he": 70,
  "in": 71,
  "\u0120a": 72,
  "\u0120o": 73,
  "es": 74,
  "\u0120the": 75,
  "er": 76,
  "\u0120w": 77,
  "on": 78,
  "\u0120of": 79,
  "or": 80,
  "it": 81,
  "\u0120s": 82,
  "nd": 83,
  "is": 84,
  "re": 85,
  "at": 86,
  "00": 87,
  "\u0120in": 88,
  "as": 89,
  "\u0120f": 90,
  "an": 91,
  "\u0120c": 92,
  "al": 93,
  "ing": 94,
  "en": 95,
  "\u0120m": 96,
  "\u0120and": 97,
  "\u0120b": 98,
  "ic": 99,
  "ed": 100,
  "om": 101,
  "\r\n": 102,
  "\u0120d": 103,
  "\r\n\r": 104,
  "ar": 105,
  "ion": 106,
  "\u0120is": 107,
  "\u0120to": 108,
  "\u0120was": 109,
  "ou": 110,
  "le": 111,
  "et": 112,
  "\u0120it": 113,
  "\u0120p": 114,
  "\u0120A": 115,
  "\u0120h": 116,
  "ll": 117,
  "th": 118,
  "ch": 119,
  "ro": 120,
  "The": 121,
  "ers": 122,
  "\u0120l": 123,
  "\u0120n": 124,
  "st": 125,
  "pp": 126,
  "il": 127,
  "\u0120for": 128,
  "ri": 129,
  "iv": 130,
  "\u0120e": 131,
  "\u0120wor": 132,
  "\u0120th": 133,
  "im": 134,
  "\u0120be": 135,
  "\u0120u": 136,
  "ce": 137,
  "\u0120(": 138,
  "ent": 139,
  "\u01201": 140,
  "\u0120Am": 141,
  "000": 142,
  "\u0120sq": 143,
  "\u0120ho": 144,
  "\u0120or": 145,
  "est": 146,
  "ation": 147,
  "\u0120r": 148,
  "ate": 149,
  "ct": 150,
  "\u0120I": 151,
  "ver": 152,
  "are": 153,
  "for": 154,
  "ol": 155,
  "ess": 156,
  "\u0120se": 157,
  "\u0120are": 158,
  "ly": 159,
  "ain": 160,
  "\u0120S": 161,
  "ld": 162,
  "\u0120he": 163,
  "\u0120k": 164,
  "ot": 165,
  "ir": 166,
  "ans": 167,
  "\u0120com": 168,
  "ef": 169,
  "du": 170,
  "pe": 171,
  "ut": 172,
  "cl": 173,
  "sing": 174,
  "\u0120re": 175,
  "\u0120tr": 176,
  "ur": 177,
  "tat": 178,
  "tates": 179,
  "\u0120world": 180,
  "\u0120kil": 181,
  "\u0120kilom": 182,
  "\u0120kilomet": 183,
  "\u0120kilometers": 184,
  "\u0120mi": 185,
  "\u0120over": 186,
  "\u0120g": 187,
  "ell": 188,
  "ow": 189,
  "\u0120that": 190,
  "och": 191,
  "ig": 192,
  "am": 193,
  "ach": 194,
  "if": 195,
  "ence": 196,
  "ul": 197,
  "em": 198,
  "clu": 199,
  "),": 200,
  "\u0120app": 201,
  "\u0120con": 202,
  "ble": 203,
  "\u0120mo": 204,
  "\u0027s": 205,
  "\u0120all": 206,
  "\u0120trans": 207,
  "\u0120U": 208,
  "\u0120wh": 209,
  "\u0120whic": 210,
  "\u0120which": 211,
  "la": 212,
  "\u0120fr": 213,
  "\u0120from": 214,
  "\u012018": 215,
  "\u0120Amer": 216,
  "\u0120Americ": 217,
  "\u0120C": 218,
  "\u0120squ": 219,
  "\u0120square": 220,
  "\u0120It": 221,
  "\u0120hole": 222,
  "ound": 223,
  "ast": 224,
  "\u0120wit": 225,
  "\u0120with": 226,
  "\u0120an": 227,
  "\u0120y": 228,
  "oth": 229,
  "\u0120ag": 230,
  "ness": 231,
  "ity": 232,
  "ason": 233,
  "ht": 234,
  "\u0120des": 235,
  "app": 236,
  "appy": 237,
  "ies": 238,
  "\u0120un": 239,
  "ial": 240,
  "\u0120int": 241,
  "cess": 242,
  "\u0120comp": 243,
  "se": 244,
  "clud": 245,
  "the": 246,
  "form": 247,
  "formation": 248,
  "ions": 249,
  "gan": 250,
  "\u0120most": 251,
  "ary": 252,
  "os": 253,
  "\u0120en": 254,
  "act": 255,
  "ant": 256,
  "\u0120ne": 257,
  "ert": 258,
  "stri": 259,
  "strial": 260,
  "\u0120R": 261,
  "\u0120Re": 262,
  "vol": 263,
  "\u012019": 264,
  "\u0120America": 265,
  "\u0120bas": 266,
  "\u0120186": 267,
  "\u0120Un": 268,
  "\u0120ind": 269,
  "\u0120States": 270,
  "ces": 271,
  "\u0120Ama": 272,
  "\u0120Amaz": 273,
  "\u0120Amazon": 274,
  "\u0120lar": 275,
  "\u0120larg": 276,
  "\u0120largest": 277,
  "\u0120area": 278,
  "\u0120im": 279,
  "\u0120liv": 280,
  "\u0120hob": 281,
  "\u0120hobb": 282,
  "\u0120hobbit": 283,
  "nds": 284,
  "ms": 285,
  "and": 286,
  "own": 287,
  "\u0120on": 288,
  "\u0120me": 289,
  "\u0120tim": 290,
  "\u0120times": 291,
  "\u0120age": 292,
  "dom": 293,
  "\u0120ep": 294,
  "\u0120epoch": 295,
  "li": 296,
  "\u0120season": 297,
  "ight": 298,
  "ter": 299,
  "\u0120fam": 300,
  "\u0120famil": 301,
  "\u0120unh": 302,
  "\u0120unhappy": 303,
  "wn": 304,
  "rt": 305,
  "\u0120intell": 306,
  "\u0120intellig": 307,
  "\u0120intelligence": 308,
  "\u0120pro": 309,
  "\u0120process": 310,
  "\u0120processes": 311,
  "\u0120by": 312,
  "\u0120mach": 313,
  "\u0120machin": 314,
  "\u0120machines": 315,
  "\u0120sy": 316,
  "\u0120syst": 317,
  "\u0120system": 318,
  "\u0120The": 319,
  "\u0120includ": 320,
  "\u0120include": 321,
  "\u0120ac": 322,
  "\u0120information": 323,
  "\u0120rul": 324,
  "\u0120rules": 325,
  "\u0120using": 326,
  "\u0120appro": 327,
  "\u0120approx": 328,
  "\u0120approxim": 329,
  "\u0120approximate": 330,
  "lf": 331,
  "itoch": 332,
  "itochon": 333,
  "itochond": 334,
  "\u0120organ": 335,
  "el": 336,
  "erate": 337,
  "ine": 338,
  "ph": 339,
  "\u0120as": 340,
  "our": 341,
  "ical": 342,
  "gy": 343,
  "lo": 344,
  "\u0120de": 345,
  "entr": 346,
  "entral": 347,
  "\u0120transact": 348,
  "\u0120transactions": 349,
  "\u0120can": 350,
  "ority": 351,
  "\u0120P": 352,
  "\u0120appl": 353,
  "\u0120applic": 354,
  "\u0120application": 355,
  "ad": 356,
  "\u0120v": 357,
  "\u0120man": 358,
  "ther": 359,
  "\u0120Ind": 360,
  "\u0120Indu": 361,
  "\u0120Industrial": 362,
  "\u0120Revol": 363,
  "\u0120Revolut": 364,
  "\u0120Revolution": 365,
  "ok": 366,
  "entu": 367,
  "ries": 368,
  "\u0120per": 369,
  "uring": 370,
  "ian": 371,
  "ci": 372,
  "\u0120bec": 373,
  "\u0120B": 374,
  "rit": 375,
  "700": 376,
  "\u0120pe": 377,
  "\u0120peo": 378,
  "\u0120peop": 379,
  "\u0120people": 380,
  "\u0120W": 381,
  "\u0120War": 382,
  "oug": 383,
  "\u01201861": 384,
  "\u0120Con": 385,
  "\u0120Conf": 386,
  "\u0120Confed": 387,
  "\u01203": 388,
  "\u012034": 389,
  "\u0120states": 390,
  "\u0120Sou": 391,
  "lav": 392,
  "\u0120indiv": 393,
  "\u0120indivi": 394,
  "\u0120individu": 395,
  "\u0120individual": 396,
  "\u0120Unit": 397,
  "\u0120United": 398,
  "\u0120form": 399,
  "\u0120formed": 400,
  "nt": 401,
  "reat": 402,
  "\u0120rain": 403,
  "\u0120rainfor": 404,
  "\u0120rainforest": 405,
  "\u0120co": 406,
  "\u0120basin": 407,
  "\u0120reef": 408,
  "\u01202": 409,
  "900": 410,
  "400": 411,
  "ara": 412,
  "\u0120desert": 413,
  "\u0120overal": 414,
  "\u0120overall": 415,
  "ctic": 416,
  "\u0120both": 417,
  "ves": 418,
  "\u0120dis": 419,
  "\u0120imp": 420,
  "\u0120heal": 421,
  "\u0120health": 422,
  "\u0120new": 423
}